<pad>	0
<unk>	0
<s>	0
</s>	0
[PAD]	0
[UNK]	0
[BOS]	0
[EOS]	0
▁F	-0
3-	-1
SM	-2
at	-3
▁2	-4
or	-5
▁a	-6
▁t	-7
▁f	-8
er	-9
02	-10
▁A	-11
▁s	-12
es	-13
▁p	-14
me	-15
ar	-16
ok	-17
re	-18
▁1	-19
▁for	-20
sa	-21
oka	-22
saoka	-23
▁th	-24
▁pl	-25
nt	-26
dat	-27
mb	-28
▁202	-29
in	-30
on	-31
ch	-32
▁re	-33
ment	-34
ot	-35
▁the	-36
data	-37
ort	-38
port	-39
ge	-40
▁S	-41
▁report	-42
▁J	-43
nd	-44
-2	-45
st	-46
le	-47
▁Asaoka	-48
4,	-49
5,	-50
ss	-51
ur	-52
▁plot	-53
an	-54
char	-55
co	-56
ll	-57
et	-58
▁0	-59
ess	-60
ssess	-61
▁N	-62
charge	-63
urcharge	-64
▁M	-65
-0	-66
Asaoka	-67
▁reporter	-68
ro	-69
th	-70
mber	-71
ing	-72
-1	-73
ember	-74
comb	-75
▁Ju	-76
▁assess	-77
▁u	-78
ed	-79
▁surcharge	-80
▁w	-81
combi	-82
-6	-83
ates	-84
-7	-85
-4	-86
-5	-87
-3	-88
ett	-89
ettle	-90
▁me	-91
4.	-92
▁and	-93
ettlement	-94
5.	-95
▁D	-96
ct	-97
▁settlement	-98
▁m	-99
▁I	-100
rom	-101
▁g	-102
▁G	-103
ary	-104
al	-105
▁on	-106
ate	-107
▁plates	-108
/2	-109
se	-110
ec	-111
of	-112
uary	-113
CD	-114
▁SCD	-115
SD	-116
▁ASD	-117
ne	-118
ay	-119
▁l	-120
ow	-121
▁from	-122
▁r	-123
ep	-124
▁b	-125
il	-126
ov	-127
one	-128
-202	-129
▁d	-130
▁P	-131
ug	-132
ut	-133
2,	-134
ra	-135
6,	-136
7,	-137
8,	-138
is	-139
ust	-140
0,	-141
3,	-142
▁dat	-143
▁U	-144
▁None	-145
▁data	-146
9,	-147
▁O	-148
1,	-149
▁assessment	-150
▁Dec	-151
▁May	-152
▁Jan	-153
▁Jul	-154
▁Aug	-155
pr	-156
▁Mar	-157
▁ma	-158
▁Apr	-159
▁=	-160
▁Sep	-161
▁Oct	-162
▁Nov	-163
▁Use	-164
eb	-165
▁Feb	-166
▁2024,	-167
▁to	-168
▁e	-169
rap	-170
▁c	-171
▁2025,	-172
/0	-173
▁i	-174
▁up	-175
▁ti	-176
▁st	-177
red	-178
DF	-179
art	-180
▁3	-181
▁till	-182
▁do	-183
op	-184
▁2024.	-185
▁of	-186
ic	-187
▁H	-188
ion	-189
▁doc	-190
▁2025.	-191
ese	-192
▁these	-193
▁max	-194
▁December	-195
▁August	-196
▁end	-197
▁v	-198
ope	-199
▁sl	-200
raph	-201
▁C	-202
tember	-203
▁ne	-204
▁need	-205
▁January	-206
▁September	-207
▁April	-208
▁March	-209
ob	-210
ober	-211
▁July	-212
ruary	-213
▁October	-214
▁February	-215
▁June	-216
un	-217
▁November	-218
ke	-219
▁slope	-220
ict	-221
▁pred	-222
▁predict	-223
na	-224
▁PDF	-225
hat	-226
▁T	-227
▁dates	-228
▁graph	-229
off	-230
utoff	-231
▁Y	-232
▁ge	-233
▁Gi	-234
▁date	-235
ile	-236
▁He	-237
de	-238
▁cutoff	-239
as	-240
▁W	-241
▁12	-242
▁k	-243
▁—	-244
ner	-245
ntil	-246
▁start	-247
▁until	-248
▁(	-249
10	-250
ull	-251
▁full	-252
qu	-253
9.	-254
▁Yo	-255
ith	-256
▁with	-257
ve	-258
▁Give	-259
▁at	-260
ick	-261
12	-262
isu	-263
isual	-264
oll	-265
ollow	-266
▁follow	-267
▁following	-268
11	-269
6.	-270
▁an	-271
▁pls	-272
7.	-273
▁j	-274
▁just	-275
▁n	-276
▁10	-277
8.	-278
▁it	-279
▁run	-280
yo	-281
▁yo	-282
1.	-283
▁22	-284
▁in	-285
3.	-286
anna	-287
▁wanna	-288
▁15	-289
▁17	-290
▁24	-291
mp	-292
ime	-293
▁Time	-294
▁14	-295
▁St	-296
▁Start	-297
ul	-298
▁20	-299
▁26	-300
▁prediction	-301
ook	-302
▁18	-303
▁16	-304
▁2024	-305
▁27	-306
ike	-307
aly	-308
▁analy	-309
ation	-310
▁Surcharge	-311
▁What	-312
▁2025	-313
ult	-314
alu	-315
▁valu	-316
ine	-317
▁25	-318
▁are	-319
nerate	-320
ssessment	-321
lot	-322
▁Plot	-323
▁30	-324
07	-325
▁11	-326
06	-327
▁19	-328
▁that	-329
▁Can	-330
▁you	-331
▁us	-332
▁using	-333
ze	-334
▁21	-335
▁29	-336
▁13	-337
26	-338
25	-339
▁Jun	-340
▁as	-341
13	-342
▁co	-343
21	-344
▁E	-345
▁End	-346
28	-347
▁28	-348
isuali	-349
09	-350
01	-351
16	-352
24	-353
03	-354
17	-355
20	-356
▁L	-357
▁B	-358
05	-359
30	-360
23	-361
34	-362
32	-363
08	-364
39	-365
29	-366
ase	-367
19	-368
31	-369
▁07	-370
04	-371
35	-372
42	-373
14	-374
thing	-375
43	-376
44	-377
atest	-378
18	-379
▁23	-380
ver	-381
36	-382
27	-383
0.	-384
▁06	-385
15	-386
/24,	-387
40	-388
▁get	-389
38	-390
▁plate	-391
eck	-392
▁ch	-393
▁check	-394
▁mo	-395
37	-396
41	-397
22	-398
/25,	-399
33	-400
▁02	-401
00	-402
it	-403
ir	-404
▁08	-405
▁01	-406
rou	-407
▁grou	-408
▁this	-409
▁04	-410
▁09	-411
-02	-412
45	-413
-2025,	-414
▁05	-415
-2024,	-416
▁comp	-417
/24.	-418
line	-419
2.	-420
ee	-421
now	-422
▁wh	-423
▁know	-424
▁GL	-425
▁meas	-426
orm	-427
cep	-428
cept	-429
nter	-430
▁inter	-431
▁intercept	-432
▁03	-433
▁by	-434
ults	-435
▁res	-436
ument	-437
▁results	-438
▁document	-439
▁predicted	-440
lp	-441
▁Help	-442
▁like	-443
/25.	-444
ooking	-445
um	-446
▁Get	-447
▁Hey	-448
▁what	-449
OC	-450
del	-451
▁DOC	-452
▁wrap	-453
▁model	-454
▁R	-455
▁all	-456
▁ov	-457
▁over	-458
-2025.	-459
fra	-460
▁Timefra	-461
▁requ	-462
air	-463
airs	-464
▁pairs	-465
eed	-466
▁Need	-467
out	-468
ad	-469
sis	-470
▁From	-471
▁analysis	-472
▁Assessment	-473
PDF	-474
ange	-475
▁values	-476
pl	-477
plate	-478
▁latest	-479
▁31	-480
ast	-481
▁last	-482
▁be	-483
▁Ge	-484
▁Generate	-485
▁was	-486
put	-487
vi	-488
▁qu	-489
▁quick	-490
icks	-491
▁kicks	-492
ak	-493
own	-494
reak	-495
▁V	-496
▁visuali	-497
ly	-498
-2024.	-499
ined	-500
▁comb	-501
▁combined	-502
ome	-503
▁some	-504
▁something	-505
▁can	-506
ell	-507
▁go	-508
ff	-509
uff	-510
▁stuff	-511
est	-512
▁ground	-513
▁id	-514
how	-515
▁show	-516
ce	-517
kin	-518
-8	-519
all	-520
▁settlements	-521
▁is	-522
mme	-523
-08	-524
gin	-525
ugh	-526
ginn	-527
▁Ple	-528
rough	-529
ginning	-530
▁Please	-531
▁compile	-532
▁through	-533
▁assessing	-534
▁beginning	-535
-11	-536
-04	-537
▁&	-538
▁done	-539
▁Timeline	-540
-09	-541
-01	-542
-12	-543
-05	-544
erf	-545
rend	-546
▁How	-547
ately	-548
▁perf	-549
orming	-550
▁trend	-551
▁lately	-552
▁performing	-553
/24	-554
ole	-555
ured	-556
▁see	-557
▁whole	-558
▁measured	-559
▁documentation	-560
rge	-561
rgent	-562
▁Urgent	-563
▁generate	-564
/05	-565
-06	-566
ry	-567
tr	-568
een	-569
etw	-570
ics	-571
eric	-572
▁but	-573
▁num	-574
▁try	-575
trics	-576
▁betw	-577
▁main	-578
▁analyze	-579
▁between	-580
▁metrics	-581
▁numeric	-582
▁Do	-583
▁or	-584
▁got	-585
ingle	-586
atever	-587
▁single	-588
▁whatever	-589
▁Timeframe	-590
-10	-591
▁tal	-592
▁Tell	-593
▁value	-594
▁talkin	-595
-07	-596
▁Range	-597
▁looking	-598
▁🙏	-599
sss	-600
itor	-601
▁mon	-602
▁plsss	-603
▁monitor	-604
ab	-605
ga	-606
ats	-607
etc	-608
able	-609
gain	-610
rent	-611
very	-612
▁cur	-613
▁etc	-614
urable	-615
▁Dates	-616
▁again	-617
▁every	-618
▁stats	-619
▁Looking	-620
▁current	-621
▁everything	-622
▁measurable	-623
/12	-624
eta	-625
let	-626
ped	-627
iled	-628
leted	-629
▁deta	-630
▁wrapped	-631
▁detailed	-632
▁completed	-633
PT	-634
lor	-635
lord	-636
▁GPT	-637
▁overlord	-638
/10	-639
),	-640
ew	-641
ft	-642
umm	-643
fter	-644
view	-645
▁look	-646
▁summ	-647
▁after	-648
▁summary	-649
▁overview	-650
assessment	-651
▁Settlement	-652
/25	-653
ead	-654
rep	-655
ired	-656
ormal	-657
▁Dead	-658
▁file	-659
▁prep	-660
▁Formal	-661
▁SCDate	-662
▁request	-663
▁Deadline	-664
▁required	-665
..	-666
Ke	-667
/02	-668
Key	-669
-46,	-670
▁Key	-671
▁started	-672
rr	-673
▁Run	-674
▁idk	-675
-76,	-676
-02,	-677
-60,	-678
em	-679
▁-	-680
iti	-681
ost	-682
run	-683
yst	-684
▁Hi	-685
▁nu	-686
▁ph	-687
-15,	-688
ayin	-689
mbers	-690
runch	-691
ystem	-692
▁post	-693
itiate	-694
▁gener	-695
▁phase	-696
▁sayin	-697
▁crunch	-698
▁system	-699
▁numbers	-700
▁initiate	-701
▁generation	-702
!)	-703
▁h	-704
not	-705
▁We	-706
-16,	-707
onna	-708
▁had	-709
▁out	-710
▁Like	-711
▁gonna	-712
▁output	-713
▁assessed	-714
▁starting	-715
-34,	-716
be	-717
ps	-718
ru	-719
hot	-720
ibe	-721
lan	-722
mes	-723
ruh	-724
-43,	-725
-72,	-726
-78,	-727
naps	-728
lance	-729
▁Bruh	-730
▁vibe	-731
▁snaps	-732
▁glance	-733
▁snapshot	-734
▁Timeframes	-735
mat	-736
omp	-737
▁ex	-738
-62,	-739
▁Comp	-740
zation	-741
▁export	-742
▁format	-743
▁Compile	-744
▁visualization	-745
-05,	-746
▁rn	-747
-08,	-748
-41,	-749
-58,	-750
-67,	-751
-63,	-752
-68,	-753
▁down	-754
▁Break	-755
-12,	-756
-22,	-757
-47,	-758
-65,	-759
isualize	-760
▁Visualize	-761
/07	-762
/08	-763
-17,	-764
/06	-765
-07,	-766
-09,	-767
-56,	-768
/04	-769
-40,	-770
▁not	-771
-20,	-772
-57,	-773
-06,	-774
-21,	-775
-31,	-776
▁Cutoff	-777
-11,	-778
/03	-779
-48,	-780
▁make	-781
/01	-782
202	-783
-42,	-784
-2025	-785
3-202	-786
by	-787
ks	-788
-35,	-789
-59,	-790
anks	-791
▁bby	-792
▁thanks	-793
-52,	-794
-70,	-795
▁In	-796
-26,	-797
-64,	-798
down	-799
▁Input	-800
▁break	-801
▁breakdown	-802
-24,	-803
-53,	-804
ap	-805
-50,	-806
-66,	-807
-73,	-808
▁Cap	-809
▁group	-810
▁range	-811
▁Visual	-812
▁needed	-813
-03,	-814
-77,	-815
/09	-816
-28,	-817
-45,	-818
-55,	-819
ulti	-820
▁Multi	-821
/11	-822
-10,	-823
-25,	-824
▁visualize	-825
-29,	-826
-33,	-827
-38,	-828
-2024	-829
-14,	-830
-74,	-831
-79,	-832
rovi	-833
rovide	-834
▁Provide	-835
-19,	-836
he	-837
-01,	-838
-27,	-839
-39,	-840
-54,	-841
-69,	-842
▁The	-843
▁off	-844
▁ends	-845
-04,	-846
-37,	-847
-71,	-848
-75,	-849
-23,	-850
-30,	-851
-32,	-852
-80,	-853
ake	-854
-13,	-855
-44,	-856
-51,	-857
▁23,	-858
▁Make	-859
ild	-860
▁Bu	-861
-36,	-862
-49,	-863
-61,	-864
▁line	-865
▁Build	-866
-03-202	-867
▁Gimme	-868
▁3,	-869
-18,	-870
▁10,	-871
▁11,	-872
▁📈	-873
▁📈:	-874
▁17,	-875
▁stop	-876
▁time	-877
▁Graph	-878
▁16,	-879
▁28,	-880
▁27,	-881
▁26,	-882
chart	-883
▁chart	-884
▁Latest	-885
▁21,	-886
cl	-887
ant	-888
clu	-889
for	-890
nly	-891
▁1,	-892
▁7,	-893
fore	-894
clude	-895
▁Only	-896
▁want	-897
▁before	-898
▁include	-899
▁29,	-900
▁30,	-901
▁4,	-902
▁8,	-903
▁12,	-904
▁9,	-905
▁20,	-906
▁2,	-907
▁18,	-908
▁19,	-909
▁25,	-910
▁24,	-911
4?	-912
▁6,	-913
▁	-914
e	-915
a	-916
-	-917
t	-918
r	-919
o	-920
s	-921
2	-922
3	-923
n	-924
S	-925
l	-926
0	-927
,	-928
M	-929
d	-930
F	-931
i	-932
u	-933
p	-934
1	-935
c	-936
m	-937
R	-938
h	-939
4	-940
b	-941
.	-942
f	-943
5	-944
A	-945
g	-946
_	-947
k	-948
6	-949
7	-950
y	-951
D	-952
8	-953
9	-954
:	-955
w	-956
J	-957
v	-958
/	-959
N	-960
C	-961
P	-962
I	-963
G	-964
?	-965
=	-966
O	-967
U	-968
x	-969
H	-970
T	-971
'	-972
L	-973
Y	-974
’	-975
W	-976
—	-977
(	-978
)	-979
q	-980
z	-981
j	-982
E	-983
B	-984
!	-985
–	-986
V	-987
&	-988
🙏	-989
K	-990
📈	-991
